11 10 11
0.800 0.587 0.569 0.622 0.009 0.408 0.757 0.432 0.174 0.895 0.019 0.539
0.644 0.599 0.312 0.875 0.643 0.286 0.165 0.736 0.583 0.117 0.009 0.739
0.989 0.064 0.353 0.995 0.349 0.906 0.097 0.566 0.129 0.102 0.769 0.460
0.523 0.230 0.836 0.686 0.528 0.716 0.321 0.877 0.394 0.721 0.874 0.908
0.487 0.978 0.238 0.108 0.004 0.980 0.140 0.045 0.138 0.717 0.535 0.892
0.347 0.660 0.912 0.206 0.771 0.517 0.190 0.329 0.082 0.757 0.362 0.552
0.787 0.017 0.982 0.216 0.503 0.893 0.487 0.920 0.318 0.291 0.601 0.090
0.283 0.634 0.733 0.155 0.062 0.612 0.353 0.140 0.956 0.675 0.492 0.541
0.136 0.012 0.755 0.092 0.259 0.651 0.204 0.566 0.554 0.757 0.642 0.138
0.544 0.843 0.899 0.397 0.605 0.759 0.431 0.455 0.919 0.537 0.259 0.218
0.682 0.578 0.250 0.014 0.905 0.339 0.037 0.924 0.806 0.565 0.583
0.056 0.933 0.724 0.353 0.299 0.733 0.326 0.976 0.803 0.788 0.111
0.734 0.314 0.874 0.465 0.438 0.665 0.214 0.156 0.938 0.556 0.573
0.736 0.758 0.412 0.952 0.899 0.612 0.732 0.061 0.631 0.189 0.188
0.439 0.778 0.864 0.212 0.389 0.738 0.277 0.775 0.233 0.995 0.500
0.755 0.988 0.026 0.416 0.326 0.887 0.731 0.573 0.962 0.423 0.414
0.683 0.407 0.309 0.230 0.935 0.864 0.690 0.644 0.561 0.828 0.752
0.826 0.989 0.911 0.678 0.366 0.614 0.047 0.085 0.195 0.762 0.949
0.082 0.985 0.807 0.299 0.915 0.683 0.163 0.974 0.120 0.693 0.319
0.263 0.391 0.498 0.265 0.764 0.856 0.820 0.595 0.079 0.853 0.180
0.551 0.974 0.827 0.364 0.544 0.175 0.176 0.133 0.217 0.734 0.539
